#map = affine_map<() -> (0, 10)>
#map1 = affine_map<()[s0] -> (0, s0)>
#map2 = affine_map<() -> (0, 32)>
#map3 = affine_map<() -> (0, 64)>
#map4 = affine_map<() -> (0, 3072)>
module attributes {torch.debug_module_name = "MLP"} {
  %0 = hls.dse.space @global() : () -> !hls.space {
    %1 = hls.dse.space @task0() : () -> !hls.space {
      %7 = hls.dse.const_param <impl> {value = #hls.impl<"" _ "">} : !hls.impl
      %8 = hls.dse.const_param <tile> {value = 0 : index} : index
      %9 = hls.dse.param @tile1 <tile> range() #map step 1 : index
      %10 = hls.dse.space @default(%8, %9) : (index, index) -> !hls.space {
      ^bb0(%arg0: index, %arg1: index):
        %12 = hls.dse.param @parallel0 <parallel> range(%arg0) #map1 step 1 : index
        %13 = hls.dse.param @parallel1 <parallel> range(%arg1) #map1 step 1 : index
        hls.dse.space_pack %12, %13 : index, index
      }
      %11 = hls.dse.space_select %7 [#hls.impl<"" _ "">] %10 : !hls.impl, (!hls.space) -> !hls.space
      hls.dse.space_pack %8, %9, %11 : index, index, !hls.space
    }
    %2 = hls.dse.space @task1() : () -> !hls.space {
      %7 = hls.dse.const_param <impl> {value = #hls.impl<"" _ "">} : !hls.impl
      %8 = hls.dse.const_param <tile> {value = 0 : index} : index
      %9 = hls.dse.param @tile1 <tile> range() #map step 1 : index
      %10 = hls.dse.param @tile2 <tile> range() #map2 step 1 : index
      %11 = hls.dse.space @default(%8, %9, %10) : (index, index, index) -> !hls.space {
      ^bb0(%arg0: index, %arg1: index, %arg2: index):
        %13 = hls.dse.param @parallel0 <parallel> range(%arg0) #map1 step 1 : index
        %14 = hls.dse.param @parallel1 <parallel> range(%arg1) #map1 step 1 : index
        %15 = hls.dse.param @parallel2 <parallel> range(%arg2) #map1 step 1 : index
        hls.dse.space_pack %13, %14, %15 : index, index, index
      }
      %12 = hls.dse.space_select %7 [#hls.impl<"" _ "">] %11 : !hls.impl, (!hls.space) -> !hls.space
      hls.dse.space_pack %8, %9, %10, %12 : index, index, index, !hls.space
    }
    %3 = hls.dse.space @task2() : () -> !hls.space {
      %7 = hls.dse.const_param <impl> {value = #hls.impl<"" _ "">} : !hls.impl
      %8 = hls.dse.const_param <tile> {value = 0 : index} : index
      %9 = hls.dse.param @tile1 <tile> range() #map2 step 1 : index
      %10 = hls.dse.space @default(%8, %9) : (index, index) -> !hls.space {
      ^bb0(%arg0: index, %arg1: index):
        %12 = hls.dse.param @parallel0 <parallel> range(%arg0) #map1 step 1 : index
        %13 = hls.dse.param @parallel1 <parallel> range(%arg1) #map1 step 1 : index
        hls.dse.space_pack %12, %13 : index, index
      }
      %11 = hls.dse.space_select %7 [#hls.impl<"" _ "">] %10 : !hls.impl, (!hls.space) -> !hls.space
      hls.dse.space_pack %8, %9, %11 : index, index, !hls.space
    }
    %4 = hls.dse.space @task3() : () -> !hls.space {
      %7 = hls.dse.const_param <impl> {value = #hls.impl<"" _ "">} : !hls.impl
      %8 = hls.dse.const_param <tile> {value = 0 : index} : index
      %9 = hls.dse.param @tile1 <tile> range() #map2 step 1 : index
      %10 = hls.dse.param @tile2 <tile> range() #map3 step 1 : index
      %11 = hls.dse.space @default(%8, %9, %10) : (index, index, index) -> !hls.space {
      ^bb0(%arg0: index, %arg1: index, %arg2: index):
        %13 = hls.dse.param @parallel0 <parallel> range(%arg0) #map1 step 1 : index
        %14 = hls.dse.param @parallel1 <parallel> range(%arg1) #map1 step 1 : index
        %15 = hls.dse.param @parallel2 <parallel> range(%arg2) #map1 step 1 : index
        hls.dse.space_pack %13, %14, %15 : index, index, index
      }
      %12 = hls.dse.space_select %7 [#hls.impl<"" _ "">] %11 : !hls.impl, (!hls.space) -> !hls.space
      hls.dse.space_pack %8, %9, %10, %12 : index, index, index, !hls.space
    }
    %5 = hls.dse.space @task4() : () -> !hls.space {
      %7 = hls.dse.const_param <impl> {value = #hls.impl<"" _ "">} : !hls.impl
      %8 = hls.dse.const_param <tile> {value = 0 : index} : index
      %9 = hls.dse.param @tile1 <tile> range() #map3 step 1 : index
      %10 = hls.dse.space @default(%8, %9) : (index, index) -> !hls.space {
      ^bb0(%arg0: index, %arg1: index):
        %12 = hls.dse.param @parallel0 <parallel> range(%arg0) #map1 step 1 : index
        %13 = hls.dse.param @parallel1 <parallel> range(%arg1) #map1 step 1 : index
        hls.dse.space_pack %12, %13 : index, index
      }
      %11 = hls.dse.space_select %7 [#hls.impl<"" _ "">] %10 : !hls.impl, (!hls.space) -> !hls.space
      hls.dse.space_pack %8, %9, %11 : index, index, !hls.space
    }
    %6 = hls.dse.space @task5() : () -> !hls.space {
      %7 = hls.dse.const_param <impl> {value = #hls.impl<"" _ "">} : !hls.impl
      %8 = hls.dse.const_param <tile> {value = 0 : index} : index
      %9 = hls.dse.param @tile1 <tile> range() #map3 step 1 : index
      %10 = hls.dse.param @tile2 <tile> range() #map4 step 1 : index
      %11 = hls.dse.space @default(%8, %9, %10) : (index, index, index) -> !hls.space {
      ^bb0(%arg0: index, %arg1: index, %arg2: index):
        %13 = hls.dse.param @parallel0 <parallel> range(%arg0) #map1 step 1 : index
        %14 = hls.dse.param @parallel1 <parallel> range(%arg1) #map1 step 1 : index
        %15 = hls.dse.param @parallel2 <parallel> range(%arg2) #map1 step 1 : index
        hls.dse.space_pack %13, %14, %15 : index, index, index
      }
      %12 = hls.dse.space_select %7 [#hls.impl<"" _ "">] %11 : !hls.impl, (!hls.space) -> !hls.space
      hls.dse.space_pack %8, %9, %10, %12 : index, index, index, !hls.space
    }
  }
  ml_program.global private mutable @global_seed(dense<0> : tensor<i64>) : tensor<i64>
  func.func @forward_node0(%arg0: memref<1x10xf32>, %arg1: memref<10xf32>, %arg2: memref<1x10xf32>) {
    affine.for %arg3 = 0 to 1 {
      affine.for %arg4 = 0 to 10 {
        %1 = affine.load %arg0[0, %arg4] : memref<1x10xf32>
        %2 = affine.load %arg1[%arg4] : memref<10xf32>
        %3 = arith.addf %1, %2 : f32
        affine.store %3, %arg2[%arg3, %arg4] : memref<1x10xf32>
      }
    }
    return
  }
  func.func @forward_node1(%arg0: memref<1x32xf32>, %arg1: memref<32x10xf32>, %arg2: memref<1x10xf32>) {
    affine.for %arg3 = 0 to 1 {
      affine.for %arg4 = 0 to 10 {
        affine.for %arg5 = 0 to 32 {
          %1 = affine.load %arg0[%arg3, %arg5] : memref<1x32xf32>
          %2 = affine.load %arg1[%arg5, %arg4] : memref<32x10xf32>
          %3 = affine.load %arg2[%arg3, %arg4] : memref<1x10xf32>
          %4 = arith.mulf %1, %2 : f32
          %5 = arith.addf %3, %4 : f32
          affine.store %5, %arg2[%arg3, %arg4] : memref<1x10xf32>
        }
      }
    }
    return
  }
  func.func @forward_node2(%arg0: memref<1x32xf32>, %arg1: memref<32xf32>, %arg2: memref<1x32xf32>) {
    %cst = arith.constant 0.000000e+00 : f32
    affine.for %arg3 = 0 to 1 {
      affine.for %arg4 = 0 to 32 {
        %1 = affine.load %arg0[0, %arg4] : memref<1x32xf32>
        %2 = affine.load %arg1[%arg4] : memref<32xf32>
        %3 = arith.addf %1, %2 : f32
        %4 = arith.cmpf ugt, %3, %cst : f32
        %5 = arith.select %4, %3, %cst : f32
        affine.store %5, %arg2[%arg3, %arg4] : memref<1x32xf32>
      }
    }
    return
  }
  func.func @forward_node3(%arg0: memref<1x64xf32>, %arg1: memref<64x32xf32>, %arg2: memref<1x32xf32>) {
    affine.for %arg3 = 0 to 1 {
      affine.for %arg4 = 0 to 32 {
        affine.for %arg5 = 0 to 64 {
          %1 = affine.load %arg0[%arg3, %arg5] : memref<1x64xf32>
          %2 = affine.load %arg1[%arg5, %arg4] : memref<64x32xf32>
          %3 = affine.load %arg2[%arg3, %arg4] : memref<1x32xf32>
          %4 = arith.mulf %1, %2 : f32
          %5 = arith.addf %3, %4 : f32
          affine.store %5, %arg2[%arg3, %arg4] : memref<1x32xf32>
        }
      }
    }
    return
  }
  func.func @forward_node4(%arg0: memref<1x64xf32>, %arg1: memref<64xf32>, %arg2: memref<1x64xf32>) {
    %cst = arith.constant 0.000000e+00 : f32
    affine.for %arg3 = 0 to 1 {
      affine.for %arg4 = 0 to 64 {
        %1 = affine.load %arg0[0, %arg4] : memref<1x64xf32>
        %2 = affine.load %arg1[%arg4] : memref<64xf32>
        %3 = arith.addf %1, %2 : f32
        %4 = arith.cmpf ugt, %3, %cst : f32
        %5 = arith.select %4, %3, %cst : f32
        affine.store %5, %arg2[%arg3, %arg4] : memref<1x64xf32>
      }
    }
    return
  }
  func.func @forward_node5(%arg0: memref<1x3072xf32>, %arg1: memref<3072x64xf32>, %arg2: memref<1x64xf32>) {
    affine.for %arg3 = 0 to 1 {
      affine.for %arg4 = 0 to 64 {
        affine.for %arg5 = 0 to 3072 {
          %1 = affine.load %arg0[%arg3, %arg5] : memref<1x3072xf32>
          %2 = affine.load %arg1[%arg5, %arg4] : memref<3072x64xf32>
          %3 = affine.load %arg2[%arg3, %arg4] : memref<1x64xf32>
          %4 = arith.mulf %1, %2 : f32
          %5 = arith.addf %3, %4 : f32
          affine.store %5, %arg2[%arg3, %arg4] : memref<1x64xf32>
        }
      }
    }
    return
  }
  func.func @forward_node6(%arg0: memref<1x3x32x32xf32>, %arg1: memref<1x3072xf32>) {
    affine.for %arg2 = 0 to 3072 {
      %1 = affine.load %arg0[0, %arg2 floordiv 1024, (%arg2 mod 1024) floordiv 32, %arg2 mod 32] : memref<1x3x32x32xf32>
      affine.store %1, %arg1[0, %arg2] : memref<1x3072xf32>
    }
    return
  }
  func.func @forward(%arg0: memref<1x3x32x32xf32>, %arg1: memref<1x10xf32>, %arg2: memref<3072x64xf32>, %arg3: memref<64x32xf32>, %arg4: memref<1x3072xf32>) attributes {__top__} {
    %1 = hls.ubuf.const_buffer {value = dense<[-0.00429682201, -0.00824111513, -0.0168872364, 0.0131615223, 0.0167468227, -0.00373468967, -0.0077810362, -0.00209412607, 0.00487789232, -0.00222303835, -0.0139529686, -0.0142701985, -0.0171076637, -0.00917102117, -0.0069572269, 0.0108561367, 0.00346657564, -0.00231783045, 0.0156939737, 0.00822302326, 0.0161464475, 0.00946905091, -0.0151367607, -0.0102094198, -0.00821244344, -1.87809768E-4, 0.00575603032, 0.00171054411, -0.0177653711, 0.00294343056, 0.00718580326, 0.00844401493, -0.0108695338, 0.0124109806, -0.0157627426, -0.0171046536, 0.00954695232, -0.00124090246, -0.0139953969, -0.00938179716, -0.00973397493, -0.0122511182, -0.00634929119, -0.00742397597, 0.00609858567, 0.00658502523, 0.0174502172, -0.0171593595, -0.00887126476, -0.00380262895, 0.0163829774, -0.00536392303, 0.00396847492, -0.00265101902, -0.00101522368, -0.00732143689, 0.00121424557, -0.00770465285, 0.0151714059, -0.0167149119, 0.00247937883, 0.00255986606, 0.0101686511, -0.0030119014]> : tensor<64xf32>} : memref<64xf32>
    %2 = hls.ubuf.const_buffer {value = dense<[-0.0651516616, 0.100313008, -0.0986783504, -0.0538876504, 0.0860923678, 0.0847796499, -0.0586803854, 0.0837875306, -0.116938442, 0.0315381289, -0.117393285, 0.1100986, 0.100134805, -0.0954117178, 0.113273069, -0.0650429279, -0.0756932795, 0.00442138314, -0.0163194835, -0.109272137, -0.0637744516, -0.0592624247, -0.00309419632, -0.0558870584, -0.00462223589, -0.0131446868, -0.0629023165, -0.0983510762, 0.100244612, 0.124021471, -0.0610963106, 2.408050e-02]> : tensor<32xf32>} : memref<32xf32>
    %3 = hls.ubuf.const_buffer {value = dense<[-0.0207113829, -0.043397177, -0.170160919, -0.0507663637, 0.099902004, 0.0793670863, -0.133764341, 0.117083266, -0.131437957, 0.0457136072]> : tensor<10xf32>} : memref<10xf32>
    %4 = hls.ubuf.const_buffer {value = dense<"0x130631BE35A3983C9603F7BDE549673D3425693C6760033EA6CEB13DAD33063E8B5B1EBE99F5F0BDBF586B3D3CBBBC3DC22F32BEE4F5D8BD50700CBD8724E93D846D1B3E848B9F3DBAC928BD876E293E11A72ABEF7CDC6BC3D861CBDB8DA2CBD346D0F3EAB1C093DA8E6D3BDE8ABE73DCEFB053C7519203D5FAF053EBD1014BEC37F3ABC761FD1BDA1954C3C6E9D9EBB97B0A23DEDAE1B3EE1BC06BEC9B3453DA1C19D3DE2F1813DA9406BBD443CA73D8C262BBEA6531C3EF06306BE20730BBE45D6B6BD218D143D915C043E293CCA3DB66649BDC675183E0153403D90D022BDC19EDDBCC07B55BDFCFF26BD6BA6493C0D9E15BE39AED33DECC5FFBD26F8EC3D920DE9BD4A200A3ECD10153E2E1B203C1C2C45395095DABDA86E083DF85801BE840A7DBD77A0CB3D711FD5BD1CA2BABD82F09F3D4AE3B5BD0EB202BE5A33DD3D1E2D903DFBD91EBE659E063D82F3023E4D62AE3B4D4D4DBC53EEE63C561001BD7255A1BC3C60243DB224183E37D00ABE21EC2F3EB742B43C4DC7F3BB162FD73D2FAE093E1BADCDBDB4CBB73DF27481BD530B093ED20CB03DD378203D858EB23DDA3F303E5E16A73D9F84C7BD99E5FBBDBD06EABD4DD63DBDC2DD583D44CD12BE9A1A253B7309693C60E2CE3D3995BBBD7CB4FB3D96201DBE5D63B23D8C17C7BB5BF0C9BCC753C4BC089731BDA323EF3DB013F4BD0B03B2BDC414BCBD25CE2CBE434231BE10516EBD40CDA2BDBD8493BD2F0AB13D85E6EFBCDE247FBC6DAC2D3E06A4D5BD5F07EDBDD20EED3D7926A4BB04E1AC3CBCD40D3E8DEC143E3E360C3D52B0D13D30D4253E78CEDC3CFAC7F0BD8FF81F3E9255D03DD85CD43CF51ACCBD84C601BE7B49F93D772CCFBDD85C0A3E56BA2BBE6D62343EBE3A1ABE66BCA0BD0BC56BBC52F20A3E5E1C0A3E8854B73CF130E23D094DCDBC52B169BDA38B1B3E056565BD1F36DEBD14C7303EE4673B3D7516BCBDCFAB993DB489EF3D289C983D8065873D9A1F6F3D9A2D2D3E26AD293EB5C4203EBA7B9D3D3687103E04DD24BEAF5601BEF542D8BDF0959CBD417944BD970B1138BC56EBBD7E3A2EBE18F0483D2E78B6BD6DE61C3E011683BCE3DBD93D9417A4BD2D901D3EF89A25BE4358E6BDA50A193E2A58AF3DD80CD13D594A65BD10E6A03DA145BB3D2BDBEABAAA6F2CBE2005B1BDC755B13D5A2501BE00B1B93D9D70BE3D9E09A7BC7C657ABDF3D1F53D00B6D5BD010F1D3E639686BD4CCF5E3DDC04DB3DA1B9823D2AC29C3D45872A3CE96EF33D226C343E448316BE8340EEBCFE2497BDFC34E2BD14948E3D665048BD375ABF3D68410B3E59A19FBD1302ABBD99EE19BDE6C72A3E689B4FBDACE3A5BD517531BEB84F07BE7E22CCBD53F413BE8E1B0FBE0E78A2BDBA13243ECA16A3BDDDBF34BE02CA4BBD1E0723BE1AFD91BD174731BEC942773CE2F1B33DD7B3193C7B02B8BC7BD4283EEF3AE33CCD615FBDBAB5353A15A829BEB77033BE1339643D965D11BE815E81BDC916823B86A6093EFBB7C8BDEF5CB2BDA78E243E3AF70C3E71C1013EE584EF3D2BBD293D580425BEF3B2AB3C038BF03D3B24BDBD3461A9BD3E4DEB3D2A5A9CBDB2B2D7BD3EFD1E3D28F3D03D4E7E4ABDDEC0733D09BB8ABD1C9B24BE7B0578BD3A58A13C1F0A203EE2AEA5BDAF6CEA3BD69BFBBD69F7B53D39D62F3E1D0A173E3F2927BE2BD427BE46CB41BD78D221BC928E74BD7E1367BCEF6C263E734217BDA346ACBDF45F31BEAE4353BC0E15D7BD3C0434BEAFA0863DA2C667BD634D303EE6AD28BE8F1E46BCD8D41EBED355F4BDEEE402BEFB2E2EBE"> : tensor<32x10xf32>} : memref<32x10xf32>
    call @forward_node6(%arg0, %arg4) : (memref<1x3x32x32xf32>, memref<1x3072xf32>) -> ()
    %5 = hls.ubuf.buffer {depth = 1 : i32} : memref<1x64xf32>
    %6 = hls.ubuf.buffer {depth = 1 : i32, init_value = 0.000000e+00 : f32} : memref<1x64xf32>
    call @forward_node5(%arg4, %arg2, %6) : (memref<1x3072xf32>, memref<3072x64xf32>, memref<1x64xf32>) -> ()
    call @forward_node4(%6, %1, %5) : (memref<1x64xf32>, memref<64xf32>, memref<1x64xf32>) -> ()
    %7 = hls.ubuf.buffer {depth = 1 : i32} : memref<1x32xf32>
    %8 = hls.ubuf.buffer {depth = 1 : i32, init_value = 0.000000e+00 : f32} : memref<1x32xf32>
    call @forward_node3(%5, %arg3, %8) : (memref<1x64xf32>, memref<64x32xf32>, memref<1x32xf32>) -> ()
    call @forward_node2(%8, %2, %7) : (memref<1x32xf32>, memref<32xf32>, memref<1x32xf32>) -> ()
    %9 = hls.ubuf.buffer {depth = 1 : i32, init_value = 0.000000e+00 : f32} : memref<1x10xf32>
    call @forward_node1(%7, %4, %9) : (memref<1x32xf32>, memref<32x10xf32>, memref<1x10xf32>) -> ()
    call @forward_node0(%9, %3, %arg1) : (memref<1x10xf32>, memref<10xf32>, memref<1x10xf32>) -> ()
    return
  }
  func.func @runtime(%arg0: memref<1x3x32x32xf32>) -> memref<1x10xf32> attributes {__runtime__} {
    %1 = hls.ubuf.buffer {depth = 1 : i32} : memref<1x10xf32>
    %2 = hls.ubuf.const_buffer {value = 